 6802
а 1693
абл 4
абри 2
авлять 3
авторств 1
адали 2
аем 9
ает 42
ажение 2
ажным 1
айз 2
айн 5
акова 2
аково 2
акци 1
ал 16
алей 2
ален 3
алени 5
алер 11
альн 6
ально 22
альные 2
альчик 6
ами 125
ан 13
анд 5
андр 3
ание 7
анн 9
анно 2
анс 3
ант 8
апель 2
аплодирова 2
ар 19
араф 3
ард 5
ариф 2
арн 5
арьер 3
асса 2
ассажи 2
ассо 4
атель 6
атичны 2
атным 2
аттер 2
аффл 2
ах 63
ахман 2
аци 9
ация 2
ачивает 4
ают 7
ая 393
б 60
бард 2
бас 2
бек 2
бер 9
бережн 2
беспокои 2
бета 2
би 8
бивает 2
бивают 2
бил 9
бир 4
бираем 1
бирайте 2
бирали 2
бирать 3
бирают 1
бить 4
благо 3
бов 5
боим 5
бол 5
больше 3
бор 14
бороть 5
борщи 3
бр 10
брасыва 3
брожелательность 3
броса 4
бросил 1
будет 4
будь 27
бы 151
быстр 2
в 88
ва 36
вает 20
важно 9
вакцин 3
вал 14
вали 9
вать 30
ваци 4
вают 7
вая 6
вед 7
ведени 1
ведёт 2
вел 5
венство 2
вер 7
вергают 2
вернул 2
вернуть 2
вероятны 1
версаль 2
верх 5
вершённо 2
вес 2
вести 15
вестфальск 3
вешенны 2
ви 22
виг 3
вид 5
виден 6
видно 8
вините 5
вит 3
вич 4
вкусны 2
влекательн 2
влекательны 2
влекают 1
влеч 3
влечени 5
влия 2
вляем 2
вляет 3
вне 5
вно 23
вным 6
вов 4
водила 2
водит 4
военн 1
воз 10
возгла 3
возь 3
вой 3
вор 7
востребованны 2
вот 287
вра 6
временно 4
время 2
всег 2
всем 23
вш 3
вшего 3
вши 9
вший 4
вы 11
вые 4
выше 5
вяз 4
вязан 2
г 53
гад 3
гает 4
ган 2
гать 6
гают 4
генн 4
гиб 3
гина 3
глушит 2
го 777
говаривать 2
говорили 2
говорить 2
говорю 19
говорённост 2
годн 2
горит 2
городск 4
гра 12
граждал 2
граф 3
гу 8
гуман 3
д 32
да 446
давал 3
дает 6
дания 5
данно 2
данном 3
дают 5
дающе 2
даёт 9
дв 5
два 3
двери 1
двига 2
движ 3
двинул 3
де 90
действия 3
действует 2
декс 2
дела 2
делал 2
делить 6
демонстрир 2
дения 4
дера 3
держ 2
держал 2
держать 3
держим 1
держит 5
десят 4
дзи 3
ди 20
дил 4
дите 6
дить 4
диш 2
длить 6
для 240
дн 6
днев 1
дневн 3
дно 26
до 14
доверие 1
довольны 1
док 6
доказанны 2
долго 4
должен 29
долюби 2
дор 2
дора 2
дорож 4
достаточно 5
друг 26
ду 15
дук 3
думаем 10
думайте 10
думать 24
думывать 3
дут 9
душ 2
душка 3
ды 9
дышать 2
дь 2
дят 9
дённым 2
дёргива 2
дёт 8
дёш 3
е 3267
ебн 1
ебны 3
ев 19
ева 4
ево 5
евско 3
его 262
еды 5
езде 2
езжает 1
ей 449
ек 15
ека 10
ектор 6
ельно 7
ельны 3
ельск 1
ем 186
емле 2
ему 133
емян 3
ен 57
енгер 2
енд 5
енес 4
ение 39
ения 36
енно 9
енны 10
ент 8
ены 9
еньки 4
ер 22
ериал 2
ермо 2
ерь 37
есны 3
есси 2
есь 108
ет 269
ехали 5
ец 27
ечение 9
ечк 4
ешь 81
ещё 115
её 69
ж 55
жали 2
жаты 2
жать 5
жды 20
же 174
жен 16
жени 7
жественно 3
живает 2
жигани 2
жизненны 3
жить 26
жно 3
жу 17
журналист 2
жённы 2
з 167
завидую 3
зад 22
замедлит 2
замен 7
звал 3
зви 2
звонил 2
звращённы 2
звучит 5
здоровым 2
зелен 2
зерн 3
зис 4
зици 3
зло 4
знания 7
знач 3
значат 2
зовё 4
зон 4
зрел 2
зритель 4
зывает 7
зыск 2
и 2402
ибо 12
ив 14
иваем 4
ивать 6
ивн 1
ившие 3
ивший 3
ившую 2
игр 6
идел 3
идов 2
из 18
изаци 7
изм 6
изма 4
ийски 2
ик 15
ика 7
ики 6
ил 21
ила 14
или 22
илл 3
ин 13
инск 4
интервью 3
интересней 2
интересно 2
интересовал 3
интерпретир 2
ир 5
иров 4
ировали 6
ирован 6
ировать 25
ирует 7
ируют 6
искари 4
исты 4
исходит 2
ись 45
ите 26
ительно 7
ительны 4
их 95
ицин 2
ич 4
ически 12
ишь 20
й 1452
йственна 3
йте 31
йти 44
к 61
ка 74
кажет 35
кажут 1
казал 16
казать 10
казывает 8
казывать 8
казывают 3
кала 2
камерн 3
ками 12
кан 10
каса 2
квартал 2
ке 15
ки 69
кинош 2
кину 2
клад 3
кладывает 2
кладывают 4
классник 2
клер 3
кло 4
ключ 2
ключает 4
ключен 3
ко 58
ков 21
кой 16
ком 14
кон 7
конфликтно 2
копа 2
кор 4
корени 2
коррект 1
корректир 2
кость 2
коф 2
кратн 2
кращает 2
крестит 3
кричал 2
кроват 2
круг 18
кручу 2
крывал 2
кто 127
ку 39
купают 1
кучу 2
л 229
ла 79
лан 4
ланд 3
латиноамериканск 2
лебан 3
лева 11
лед 6
леза 2
леко 2
лекци 7
лени 2
ление 6
ления 10
летия 3
летнем 2
лжно 2
ли 664
лин 7
липов 2
лицы 2
личностно 1
лишь 9
ло 44
лова 6
лови 4
лог 6
логически 3
ложение 1
ложения 2
ложил 1
ложить 5
лок 10
локальност 2
лом 9
ломера 3
лос 4
лосин 2
лс 3
лугу 1
лы 5
ль 33
льз 32
лько 141
льнице 4
льно 3
льше 28
льщи 2
лью 3
лю 21
любленны 1
ля 31
ляет 6
ляну 2
ляци 5
ляющим 1
лё 8
лёд 2
м 1078
мамб 2
ман 9
манипулирова 3
манипулируемы 2
маркет 3
менит 1
менно 47
мент 5
ментари 3
меньше 4
менён 2
мер 7
мере 5
месте 10
метр 3
метра 4
ми 169
мину 5
миротвор 2
младше 3
ммуни 2
много 11
можно 117
мой 8
молв 3
молекулярно 2
молчан 2
му 176
мур 1
мысленн 1
мыслим 1
н 79
на 57
наблюда 2
над 5
надо 48
надцати 4
напих 3
наруж 2
наследовал 2
наук 2
национальн 2
начал 4
начала 17
наче 9
ная 46
нг 21
ндор 6
ндр 4
не 14
неб 2
нег 9
нение 4
нес 5
нести 6
несут 4
нет 7
нец 18
неч 2
ни 51
ние 25
низа 3
ник 23
ника 8
ников 6
нимаем 2
нимать 2
нимают 1
нитк 5
ниц 9
ница 3
ния 35
нно 14
нность 5
нны 8
нным 7
но 118
нов 17
ного 30
ном 14
номер 4
номодифицированн 2
носит 5
носить 3
ности 11
ность 14
ностям 1
носят 3
нс 3
нск 3
нственны 2
нструкци 2
нтар 2
нужны 13
нул 3
нутри 2
нуть 12
нце 3
ны 70
ные 40
ным 17
нь 232
нька 11
ньше 9
няк 2
нятно 2
нятны 2
нять 3
няют 3
нём 19
о 778
обой 26
оборот 10
образ 2
общ 5
общают 2
обязательно 2
ов 361
овали 5
ования 7
овать 25
овинк 3
ович 2
овод 3
овсе 5
овск 2
овски 4
овым 3
ого 96
огранич 2
ограф 3
одили 2
оду 7
оды 8
ое 109
ождение 4
оздаст 2
ой 268
ойдё 2
ок 92
окуп 3
олог 3
ологи 11
олько 11
ом 316
он 23
онально 4
они 5
ообраз 2
ообразны 2
ообще 69
оп 11
опри 3
опрос 4
опубликова 2
опытным 3
ор 18
ора 7
организованны 2
ордин 5
орным 1
осознанно 2
оспори 2
остаёт 5
ости 6
ость 15
ось 113
от 29
ответственно 6
отек 2
открывател 2
охран 2
очен 2
очил 1
очк 6
очка 4
очно 5
ошла 2
оёмкость 3
п 87
пал 2
пала 3
пам 2
парк 2
пасти 1
пать 9
пе 10
пев 2
первы 2
перед 3
пил 2
пиона 3
писал 2
писать 8
писываем 1
писывает 1
пись 4
пиш 2
пиши 6
планиру 4
плат 1
плин 2
пло 3
плотил 1
плыв 3
плюс 3
повед 2
поднять 2
подоб 4
покоит 1
ползл 2
полне 5
полняет 3
положен 2
пользовать 2
пользуем 4
понятно 15
порт 2
пособ 2
поставленны 2
потребля 3
почти 26
правда 19
правды 2
правит 2
править 3
правляет 1
пределен 2
предсказ 2
предугад 2
придумыва 2
приз 2
пример 52
принимать 6
причин 2
прияти 2
приятна 2
про 10
продолжительност 4
промысл 2
против 6
процент 2
прыг 3
пто 3
пуск 4
пускаю 2
пустит 2
пущен 4
пытать 5
пят 4
пять 27
р 39
ра 50
рабатыва 2
работа 6
работал 2
рав 8
раж 7
разд 18
разительно 3
разить 3
различны 2
разу 20
район 2
ран 7
раф 2
ращива 3
рб 3
ре 23
реактивно 2
ревн 1
ред 4
редко 2
режде 10
режимы 3
рез 5
ренци 2
решения 2
ри 22
риз 4
рим 6
рить 4
рма 3
рно 4
рня 2
ро 23
рованны 4
ровать 3
рог 5
род 6
родны 2
рози 3
рока 2
ром 7
рос 5
росят 2
рох 3
рсона 2
ру 16
руг 2
руга 5
ружи 4
ры 28
рь 3
ряд 12
ряют 3
рё 3
рённы 2
рёт 2
с 116
са 13
свечи 2
се 11
секунда 1
сер 3
серди 3
сид 2
сильно 2
ск 18
сказа 2
ски 25
ско 16
скольк 11
сколько 41
ском 7
скоп 4
скрип 3
ску 5
сладки 1
следова 1
следовательно 3
следствия 1
слуга 1
слушива 2
сман 11
смен 8
смертно 2
смотре 2
смотря 11
снижа 2
снова 4
снуть 3
совершен 4
сон 5
сос 4
сохранени 2
спешн 2
спользовать 2
спор 2
ссо 1
ст 24
ста 33
ставляет 6
стал 4
старше 3
стати 12
статистическ 3
стаёт 5
ства 9
ственно 4
ственны 2
ство 20
ству 9
ствует 3
степен 5
стер 6
сти 61
сто 10
стоит 9
стойчивость 4
сточн 3
стоя 4
стр 13
стра 8
страивает 2
страивать 2
строен 3
строенны 2
строил 2
строить 17
стройств 4
сту 5
ступ 6
ступает 4
ступил 2
ступлени 1
сть 44
су 15
считает 1
счёт 2
сылают 3
сь 204
ся 1092
т 767
тает 7
так 4
талкивают 2
там 118
тант 3
тар 2
таск 2
таци 6
тают 4
те 111
тек 4
тель 5
тельн 5
тельниц 1
тельно 12
тельны 8
тельства 3
тельство 2
тем 7
тер 15
терял 1
терян 2
тивны 3
тика 3
тиков 4
тили 5
тим 12
тирал 2
тирует 2
тихонечк 2
тич 3
тическо 3
тнес 2
тно 7
то 23
той 9
толь 3
тор 9
тора 4
торски 2
тракт 5
тратит 2
требует 2
тремя 3
трет 2
трическо 2
тройк 2
тур 9
тус 4
ты 22
ть 1472
тянут 3
у 1055
убедить 1
убеж 3
уда 49
удовлетвор 2
ует 9
уете 4
уждает 3
уже 8
улета 3
ульт 4
упал 2
ур 7
урны 3
ус 12
устремлённым 2
уточн 3
уха 3
учать 2
учающих 2
ученн 2
учил 7
учить 3
уши 4
ую 248
уют 9
ующие 3
ф 18
фал 2
фан 3
фе 5
ференци 4
фи 13
физиологи 2
фикаци 3
фиксировал 3
фон 4
формирован 1
формируют 2
фран 3
функци 2
фур 2
фут 4
х 816
хватили 2
хватит 3
хими 3
ход 12
ходила 6
ходим 5
ходит 7
ходить 19
ходишь 3
ходят 13
ходящего 2
хожу 12
ц 15
ца 9
цар 3
цев 4
цент 5
цепт 5
ци 16
ционист 2
ционно 3
ционным 2
циру 3
ция 13
цу 8
цы 6
ч 25
ча 20
час 91
части 3
часто 41
чат 5
чаты 2
чащ 13
че 33
чем 32
чер 4
ческ 7
чески 16
чет 7
чи 23
чив 4
чивает 4
чик 6
числ 3
читывать 1
чко 4
член 2
чн 4
чно 10
чны 17
что 3
чувствительн 2
чувствова 1
чь 34
ш 39
шах 3
ше 5
шего 3
шей 3
шек 3
шечн 2
шивает 4
ший 4
шила 3
шин 3
шка 7
шки 11
шко 4
шку 7
шла 3
шным 2
шу 5
шь 40
шё 4
шёл 28
щ 48
щая 3
щей 6
щения 3
щет 3
щие 9
щий 10
щими 3
щих 7
ъ 6
ъеха 2
ы 786
ывал 5
ывать 3
ывают 4
ые 56
ый 74
ым 38
ыми 9
ыня 3
ых 58
ь 230
ьми 21
ьно 4
ьны 5
ьным 3
ьте 19
ью 10
ья 10
э 9
эл 5
эль 2
эрро 6
эт 3
ю 449
юда 13
юр 5
ют 163
ющая 4
ющего 6
ющий 11
ющих 12
я 800
явление 2
явления 6
являем 3
являет 1
являют 23
яка 6
ят 41
ях 19
ё 41
ёв 2
ёд 4
ёк 3
ёл 13
ём 25
ён 20
ённ 2
ённы 14
ёр 7
ёрка 2
ёс 4
ёт 24
ёш 2
ёшь 8
▁ 2268
▁а 449
▁абс 3
▁абсолютно 15
▁абстрак 2
▁автобус 3
▁автоматическ 1
▁автоматически 3
▁автомобил 2
▁автор 9
▁авторитет 3
▁авторитетны 2
▁аг 12
▁агресси 3
▁агрессивны 2
▁ад 4
▁адаптирова 2
▁азиатск 3
▁академи 10
▁актив 6
▁активн 2
▁активно 11
▁активны 5
▁актуальн 3
▁актёр 3
▁акц 4
▁акция 2
▁алекс 3
▁алексе 3
▁алкогол 3
▁алле 3
▁алтар 3
▁алфавит 2
▁альтернативн 2
▁альтуризм 5
▁альтурист 7
▁америк 2
▁американск 2
▁американски 3
▁американским 2
▁американско 12
▁американц 2
▁аминокислот 3
▁ан 3
▁ана 5
▁анализ 4
▁анализиру 3
▁аналоги 11
▁ангел 3
▁английск 2
▁андре 6
▁анима 5
▁анти 7
▁антиклерикал 2
▁антон 3
▁антропо 2
▁ап 6
▁аплоди 5
▁арбат 2
▁аргумент 3
▁арнхейм 2
▁аронович 4
▁арт 3
▁архи 4
▁архитектор 16
▁архитектур 2
▁архитектурн 4
▁архитектурном 2
▁атак 2
▁атмосфер 3
▁аудитори 2
▁б 28
▁баб 4
▁бабочк 2
▁бабушк 10
▁баз 3
▁базз 3
▁бактери 5
▁бал 4
▁баланс 10
▁бан 5
▁бар 2
▁бара 2
▁баскетбол 8
▁басн 7
▁бассей 2
▁бат 3
▁бах 2
▁бег 8
▁бега 6
▁бед 6
▁бедны 3
▁бежа 1
▁бежал 2
▁бежит 3
▁без 37
▁безвоз 2
▁безопасн 3
▁безумн 2
▁безусловн 3
▁бел 3
▁белк 7
▁белков 2
▁белы 2
▁бель 2
▁бер 4
▁берег 8
▁берлин 3
▁берё 6
▁берёт 6
▁бес 12
▁бесконечно 5
▁бесплатн 2
▁бесплатны 2
▁бесполезн 4
▁бесшабашн 2
▁библи 6
▁бизнес 25
▁билет 3
▁биографи 2
▁биолог 2
▁биологи 3
▁биологическ 1
▁биологически 7
▁благодар 16
▁благодарност 8
▁благородн 2
▁благородно 3
▁благотвор 2
▁ближ 4
▁ближайш 2
▁близк 1
▁близки 13
▁близким 5
▁близко 3
▁блузк 2
▁блюд 3
▁бо 17
▁бог 13
▁богат 2
▁богатств 3
▁богослов 3
▁бодр 2
▁божественн 2
▁боит 3
▁бол 6
▁более 49
▁болезн 3
▁болезненн 2
▁боли 3
▁боль 3
▁больно 10
▁больш 12
▁больше 95
▁больши 6
▁большим 7
▁большинств 13
▁большинство 20
▁большо 31
▁бомб 2
▁бонд 2
▁борис 2
▁бород 2
▁борьб 7
▁боя 6
▁брак 5
▁брат 2
▁брать 6
▁бренд 3
▁бродве 2
▁бросил 5
▁брю 2
▁брянск 2
▁бу 6
▁буд 27
▁буде 21
▁будет 94
▁буду 50
▁будуще 20
▁будущи 3
▁бук 2
▁букв 2
▁буквально 10
▁бумажечк 2
▁бумажк 2
▁бургер 5
▁бурно 2
▁бут 2
▁бухгалтери 2
▁бы 225
▁был 285
▁быстре 8
▁быстро 15
▁быстры 3
▁бюджет 7
▁в 1770
▁важн 4
▁важна 7
▁важнейш 1
▁важнейши 5
▁важно 59
▁важны 18
▁валь 2
▁вам 65
▁вариант 6
▁вас 74
▁ваш 13
▁ваше 26
▁ваши 20
▁вдохн 3
▁вдохновени 2
▁вдохновил 2
▁вдохновля 7
▁вегетариан 2
▁вегетарианц 3
▁ведут 4
▁ведущ 3
▁ведь 34
▁ведьм 4
▁ведёт 7
▁велик 1
▁велики 10
▁велико 2
▁величина 3
▁вене 2
▁венецианск 2
▁вер 16
▁вери 5
▁верит 2
▁верн 5
▁вернуть 7
▁вернём 3
▁вероятно 2
▁вероятность 8
▁вертикал 2
▁верхн 3
▁вершин 2
▁весел 2
▁весёл 2
▁вече 2
▁вечер 12
▁вечно 3
▁вещ 37
▁веществ 3
▁вещь 18
▁вжи 3
▁взаимо 3
▁взаимодейств 2
▁взаимодействи 6
▁взаимодействова 4
▁взгляд 7
▁взглян 2
▁взлёт 3
▁взор 2
▁взросл 2
▁взрослом 2
▁взрослы 9
▁взрыв 3
▁взя 4
▁взял 9
▁вид 36
▁виде 17
▁видел 14
▁видени 3
▁видим 17
▁видимо 5
▁видит 18
▁визуализаци 2
▁визуальн 1
▁визуальны 2
▁винов 3
▁виноват 3
▁вклад 4
▁вкладываю 2
▁включа 4
▁вкус 5
▁владе 2
▁владел 3
▁власт 4
▁власть 3
▁влия 19
▁влияние 5
▁влюблён 2
▁влюблённост 5
▁вмест 53
▁вмешат 2
▁вне 6
▁внешним 3
▁вниз 3
▁внимани 21
▁внимательны 2
▁внук 2
▁внутренне 5
▁внутренни 4
▁внутри 20
▁внучка 3
▁внуши 2
▁во 104
▁вовлечен 3
▁водны 3
▁водопровод 3
▁военны 2
▁воз 18
▁возвращ 1
▁возвраща 7
▁воздух 4
▁возложи 2
▁возможно 17
▁возможност 40
▁возмущение 2
▁возника 15
▁возникн 2
▁возраст 9
▁возрождени 2
▁возьмё 2
▁войн 12
▁волей 2
▁воли 24
▁волнует 3
▁волокна 4
▁волонтёр 6
▁волшеб 2
▁волшебны 4
▁вольфганг 7
▁воображ 2
▁вообрази 2
▁воплоти 4
▁воплощ 1
▁воплоща 2
▁вопр 2
▁вопрос 52
▁воронк 4
▁ворошилов 4
▁вос 3
▁восемь 4
▁воспал 2
▁воспалительны 4
▁воспита 5
▁воспитание 3
▁воспитыва 8
▁воспользу 2
▁воспоминание 3
▁воспринимает 4
▁воспринимать 7
▁воспринимают 3
▁восприяти 10
▁восстанавлива 3
▁восхитительн 2
▁восьмо 2
▁впер 3
▁впечатл 2
▁впечатлени 2
▁враг 5
▁вражд 2
▁врач 19
▁враща 3
▁вред 4
▁вредны 2
▁врем 4
▁времен 36
▁время 85
▁врод 10
▁все 251
▁всевозможн 2
▁всег 52
▁вселенн 10
▁всем 28
▁вспомина 4
▁вспомни 8
▁вспомнил 4
▁вспомнит 9
▁встрети 2
▁встретил 4
▁встреч 2
▁встреча 5
▁встречает 2
▁встречал 2
▁встречало 2
▁встречают 5
▁встроен 3
▁всю 29
▁всяк 4
▁всяки 13
▁всё 232
▁втор 11
▁второ 35
▁вы 375
▁выбира 4
▁выбирае 3
▁выбирал 2
▁выбор 22
▁выбора 8
▁выбра 3
▁выбрал 4
▁выбрасывает 2
▁выброс 6
▁выведен 2
▁вывод 12
▁выгляд 12
▁выгод 2
▁выдающ 3
▁выделя 2
▁выезжа 2
▁выжива 2
▁выживани 3
▁вызов 3
▁вызывают 2
▁выигра 3
▁выйд 6
▁выле 4
▁вылеч 2
▁вылечил 2
▁вынес 2
▁вынужден 7
▁выпал 2
▁выпека 2
▁вырабатыва 2
▁выража 3
▁выражени 5
▁выразительно 5
▁выраст 4
▁вырва 2
▁вырос 2
▁выросл 3
▁высказыва 3
▁высмеива 2
▁высоки 3
▁высоко 6
▁выстроит 1
▁выступа 2
▁выступлени 6
▁вытесн 2
▁выхват 2
▁выход 8
▁выходит 3
▁выходны 6
▁вышл 7
▁выясни 9
▁вятск 4
▁г 86
▁газ 9
▁газет 2
▁газета 3
▁газов 3
▁гал 4
▁гар 2
▁гараж 2
▁гармони 8
▁ген 10
▁генд 2
▁генерирующ 2
▁генети 2
▁гениальны 4
▁геном 3
▁географ 1
▁географи 4
▁георг 3
▁гер 3
▁герман 2
▁германн 9
▁геро 8
▁героя 3
▁гибн 3
▁гиг 2
▁гипер 2
▁гипотез 4
▁гитар 2
▁главн 6
▁главно 14
▁главны 16
▁глаз 3
▁глаза 17
▁глоб 2
▁глобализаци 2
▁глубин 4
▁глубинно 4
▁глубок 1
▁глубоки 4
▁глубоко 5
▁глупы 3
▁гмошны 2
▁гнев 2
▁говори 35
▁говорил 28
▁говорит 45
▁говоря 41
▁год 35
▁года 13
▁гол 4
▁голливуд 4
▁голливудск 2
▁голов 29
▁голод 5
▁голос 3
▁голоса 6
▁голосова 2
▁голосовани 5
▁голосуе 2
▁голуб 4
▁гон 2
▁гонк 2
▁гор 7
▁горб 2
▁горизонт 3
▁горл 4
▁горо 3
▁город 34
▁города 36
▁горожан 3
▁горя 3
▁горяч 2
▁госпо 3
▁государств 6
▁государственно 2
▁государственны 2
▁готов 12
▁готовы 10
▁гравитаци 3
▁гравюр 2
▁градус 2
▁граждан 2
▁гран 7
▁грандиозны 2
▁границ 9
▁графин 11
▁гре 5
▁громк 2
▁гросс 3
▁груд 3
▁груз 5
▁групп 19
▁группа 6
▁грусти 4
▁грустн 3
▁гряз 2
▁грязн 2
▁д 14
▁да 193
▁давай 32
▁давала 2
▁давлени 2
▁давн 14
▁дале 25
▁дальнейш 4
▁далёк 2
▁далёки 3
▁дама 7
▁данны 17
▁данным 5
▁даёт 17
▁два 48
▁две 21
▁двер 4
▁двига 12
▁двигает 2
▁движени 5
▁движение 12
▁двойн 1
▁двойно 2
▁дворянск 2
▁двум 2
▁двух 22
▁де 23
▁дев 5
▁девочк 13
▁девушк 2
▁девят 6
▁дезо 2
▁действ 17
▁действи 4
▁действие 8
▁действительно 39
▁действия 14
▁действующим 2
▁дел 77
▁дела 85
▁делает 17
▁делал 3
▁делали 5
▁делаю 5
▁делают 19
▁делит 2
▁делить 9
▁дело 56
▁дельфин 30
▁демократич 2
▁демон 3
▁день 45
▁деньг 19
▁деньгам 2
▁депресси 7
▁дерев 4
▁деревен 3
▁деревн 13
▁держал 3
▁держи 3
▁держите 3
▁десят 6
▁десятилетия 2
▁десятк 6
▁дет 9
▁детал 3
▁дете 25
▁дети 30
▁детски 3
▁детств 7
▁детя 8
▁дефицит 2
▁децибел 2
▁деятельност 5
▁деятельность 3
▁джеймс 2
▁джо 2
▁ди 11
▁диа 6
▁диагноз 2
▁диагности 3
▁див 2
▁дигидроген 2
▁диет 5
▁диковин 2
▁диктатор 2
▁диктаторск 1
▁диктаторско 2
▁дим 14
▁дис 3
▁диск 5
▁дистанци 2
▁дистрибутор 3
▁длительн 2
▁дн 24
▁до 140
▁добави 6
▁добивае 2
▁добр 2
▁добра 11
▁добро 17
▁добровольц 4
▁доброжелательн 1
▁доброкарт 3
▁добры 6
▁довери 3
▁доверя 3
▁доверяет 3
▁довольн 19
▁дог 3
▁договор 3
▁дожда 4
▁доказан 1
▁доказательств 1
▁доказательство 4
▁доклад 2
▁доктор 4
▁доктрин 2
▁документ 5
▁документалистик 2
▁документальн 3
▁документально 11
▁долг 3
▁долго 15
▁должн 51
▁должно 9
▁долин 2
▁дом 22
▁дома 10
▁домашн 2
▁домостро 2
▁дополн 4
▁допус 7
▁дорог 7
▁дороги 5
▁дост 7
▁достаточно 22
▁достиг 2
▁достигн 2
▁достиж 2
▁досто 2
▁достоверн 4
▁доступ 4
▁доступн 6
▁дохода 3
▁доч 2
▁др 7
▁дра 3
▁драк 2
▁древн 2
▁друг 49
▁друга 17
▁други 33
▁другим 17
▁друго 41
▁другом 19
▁другу 11
▁друж 2
▁дружи 3
▁друз 5
▁друзья 8
▁друзьям 4
▁дума 2
▁думает 11
▁думал 5
▁думаю 30
▁дурак 4
▁дурно 2
▁дурны 2
▁дух 4
▁духовенств 1
▁духовенство 5
▁духовно 2
▁душ 14
▁душа 9
▁дыр 2
▁дыхани 3
▁дыш 3
▁дышат 2
▁дьявол 3
▁евро 2
▁европе 5
▁европейск 3
▁еди 5
▁единиц 3
▁единоглас 3
▁единств 3
▁единственн 2
▁единственно 6
▁единственны 8
▁едины 2
▁еду 3
▁еже 3
▁ежедневн 1
▁ежедневно 4
▁ежедневны 3
▁езди 3
▁екатерин 2
▁епископ 5
▁еретически 5
▁ерунд 3
▁ес 453
▁естественно 19
▁естественны 3
▁ж 24
▁жал 5
▁жар 2
▁ждал 4
▁же 219
▁жела 6
▁желани 2
▁желание 17
▁желания 17
▁женщин 25
▁жест 2
▁жесток 2
▁жив 5
▁живо 16
▁живот 3
▁животно 5
▁животны 16
▁животным 8
▁живу 16
▁живы 9
▁живё 9
▁живёт 10
▁жизн 112
▁жизнь 78
▁жил 13
▁жиль 2
▁жител 15
▁жителям 4
▁журнал 3
▁журналист 3
▁жёстк 3
▁жёстки 3
▁за 314
▁заб 4
▁заболе 2
▁заболевани 9
▁заболевание 8
▁заболеваниям 2
▁забот 4
▁забыва 4
▁забыл 5
▁забыт 2
▁забыть 2
▁завершил 2
▁завещани 2
▁зависе 2
▁зависи 7
▁зависимост 6
▁завод 3
▁завоева 2
▁завтра 8
▁завтрак 3
▁завтрако 1
▁загр 2
▁загрязн 4
▁зада 5
▁задава 5
▁задавал 4
▁задала 2
▁задач 26
▁задают 2
▁задумает 2
▁задумал 3
▁задумали 3
▁задуман 2
▁задумывае 4
▁задумывал 3
▁зайд 3
▁заказ 2
▁заключал 5
▁заключени 2
▁заключён 2
▁закон 10
▁закономерност 2
▁закончил 4
▁закончила 3
▁закро 3
▁закрыты 2
▁зала 3
▁зале 7
▁залез 2
▁заме 4
▁замедля 2
▁замет 5
▁заметил 4
▁замеча 8
▁замечательн 3
▁замечательно 4
▁замечательны 6
▁замира 2
▁замуж 4
▁замёрз 4
▁занима 11
▁занимаем 4
▁занимал 6
▁занимаю 7
▁занят 2
▁заняти 9
▁занятия 3
▁занять 3
▁зап 5
▁западно 3
▁запах 5
▁запечатлел 3
▁запис 2
▁записыва 4
▁запла 2
▁запол 2
▁заполни 3
▁запомина 2
▁запомни 6
▁запрещ 3
▁запрос 3
▁запуск 2
▁зар 4
▁зарабатыва 5
▁заработа 6
▁засел 2
▁заслуженн 1
▁заслуженно 2
▁засмеял 3
▁застав 3
▁застройк 2
▁засучива 2
▁засыпа 4
▁зато 4
▁затрагива 2
▁затрат 3
▁захватыва 4
▁заходит 2
▁захот 3
▁захотел 5
▁защит 7
▁защища 4
▁защищённо 2
▁заяви 3
▁зве 2
▁звер 2
▁звон 3
▁звонит 5
▁звук 4
▁звукоподражани 3
▁звучал 3
▁звёзд 4
▁зд 61
▁здани 2
▁здоров 10
▁здоровь 7
▁здоровье 5
▁зелён 3
▁зелёны 3
▁зем 4
▁земл 11
▁земле 9
▁земля 7
▁зеркал 2
▁зим 7
▁зла 2
▁злит 2
▁зна 25
▁знае 20
▁знает 86
▁знак 6
▁знакомо 3
▁знакомств 2
▁знакомы 7
▁знал 16
▁знани 20
▁знания 21
▁значени 4
▁значимы 3
▁значит 48
▁значительно 2
▁знаю 55
▁золот 1
▁золото 3
▁золоты 5
▁зон 4
▁зрело 4
▁зрени 13
▁зрител 3
▁зрителя 2
▁зубов 3
▁и 2291
▁игнорир 2
▁игр 9
▁игра 39
▁игруш 3
▁игрушк 7
▁ид 4
▁иде 26
▁идеал 4
▁идеальн 8
▁идентичност 3
▁идеологическ 2
▁идё 6
▁идёт 21
▁иерарх 1
▁иерархи 4
▁из 261
▁избирател 12
▁избра 3
▁известно 7
▁известны 5
▁издева 2
▁изменени 20
▁измени 7
▁изменил 9
▁изменит 3
▁изменяет 2
▁измерени 4
▁измеря 5
▁изображ 2
▁изображени 3
▁изображения 8
▁изобрази 3
▁изобрет 4
▁изуча 8
▁изучаю 4
▁иконографи 3
▁иллюзи 2
▁име 14
▁имеет 14
▁имел 2
▁имен 7
▁имею 10
▁имеющих 4
▁импери 2
▁импульс 4
▁инвалид 2
▁инвест 3
▁инвестици 2
▁индивидуальн 5
▁индийск 2
▁индустри 5
▁инициатор 3
▁инк 4
▁иног 22
▁инста 3
▁инстинкт 2
▁институт 12
▁инструкци 3
▁инструмент 15
▁интеллект 2
▁интеллектуальн 2
▁интеллигентн 3
▁интенци 2
▁интерес 12
▁интересн 2
▁интересно 37
▁интересны 9
▁интересует 2
▁интернет 12
▁интерпрет 3
▁интуитивно 5
▁интуитивны 3
▁инф 2
▁информаци 22
▁информационно 2
▁информационны 2
▁иным 6
▁иска 11
▁исключени 2
▁исключительн 3
▁исключительны 2
▁искренне 2
▁искренни 2
▁искупа 2
▁искусств 3
▁искусства 13
▁искусстве 4
▁искусство 12
▁исп 3
▁исполн 2
▁использова 3
▁использовать 13
▁использу 5
▁используем 2
▁исправи 2
▁испугал 2
▁испыта 4
▁испытания 7
▁испытуем 1
▁испытуемы 9
▁испытыва 5
▁испытывающи 2
▁исслед 2
▁исследова 3
▁исследовани 2
▁исследование 9
▁исследования 11
▁исследовательск 2
▁истинны 3
▁истори 52
▁историческ 7
▁исторически 10
▁источник 5
▁исход 2
▁исчерп 2
▁итали 6
▁итальянск 2
▁итальянски 4
▁итог 4
▁ищу 4
▁июн 2
▁йог 2
▁к 322
▁ка 24
▁кабинет 3
▁кажд 12
▁каждо 31
▁каждом 15
▁кажды 65
▁казн 6
▁кайф 2
▁как 596
▁каки 38
▁каким 17
▁каком 9
▁калач 8
▁калачн 4
▁калачник 2
▁камеро 4
▁кампани 2
▁кандидат 10
▁каннск 3
▁кап 4
▁капитал 2
▁кар 4
▁кардинал 2
▁карикатур 5
▁карт 16
▁карта 6
▁картин 17
▁картинк 3
▁картинка 7
▁кас 1
▁каса 12
▁категори 7
▁категория 3
▁католи 1
▁католик 2
▁католическ 3
▁каче 2
▁качеств 3
▁качестве 5
▁квартир 5
▁кейс 2
▁киллер 3
▁кино 80
▁киноиндустри 3
▁кинокритик 6
▁кинотеатр 6
▁кинотеатра 3
▁кинотеатрально 2
▁кинофестивал 5
▁киношкол 2
▁киров 3
▁кисло 2
▁кит 6
▁китайск 2
▁кишечник 3
▁клад 3
▁класс 20
▁классическ 3
▁классно 8
▁классны 3
▁клет 5
▁клетк 13
▁клиент 3
▁климат 12
▁клиник 3
▁клинически 7
▁клирик 5
▁клуб 3
▁ключ 7
▁ключевы 2
▁ключи 1
▁книг 22
▁книжк 2
▁книжка 6
▁книжн 3
▁кноп 3
▁княз 2
▁ко 41
▁коврик 2
▁ког 230
▁код 2
▁кое 6
▁кол 7
▁колд 2
▁количеств 2
▁количества 4
▁количество 23
▁коллег 6
▁коллективно 4
▁коллективны 7
▁коллекци 3
▁колокольн 2
▁коломенски 3
▁коломн 4
▁колонк 3
▁колоссально 2
▁колоссальны 3
▁колхоз 2
▁кольк 3
▁кольц 3
▁коляск 1
▁коляска 2
▁ком 18
▁команд 10
▁команда 6
▁комбинаци 3
▁комич 2
▁коммерчески 2
▁коммуникаци 6
▁комнат 10
▁компани 12
▁компенс 2
▁компетен 2
▁компл 3
▁комплекс 3
▁комплексн 3
▁комплексны 5
▁компонента 2
▁компромисс 3
▁компьютерн 3
▁компьютерны 2
▁комфорт 2
▁комфортн 3
▁кон 15
▁конвен 3
▁конверси 2
▁конечно 47
▁конкретно 5
▁конкретны 3
▁конкретным 2
▁конкурен 3
▁конс 3
▁консул 4
▁контакт 7
▁контекст 2
▁континент 4
▁контраст 2
▁контрол 4
▁контролиру 2
▁конфе 1
▁конфликт 5
▁конц 5
▁конца 8
▁конце 11
▁концентраци 3
▁концентриру 2
▁концепци 2
▁концерт 6
▁конча 2
▁копир 2
▁кор 5
▁корн 4
▁коро 4
▁коробк 2
▁коробочк 3
▁коров 10
▁коротк 3
▁коротким 3
▁корпора 3
▁корре 2
▁коррек 2
▁кос 3
▁космос 4
▁кост 6
▁кот 3
▁котор 71
▁которо 79
▁котором 20
▁которы 275
▁которым 14
▁кош 3
▁кр 9
▁крайне 5
▁крас 1
▁красив 3
▁красива 4
▁красивы 5
▁красн 4
▁красны 3
▁красо 3
▁красот 8
▁краудфандинг 3
▁креативн 3
▁крепк 2
▁крепко 3
▁крепост 2
▁крес 2
▁крест 2
▁кри 4
▁критик 4
▁критику 2
▁критически 2
▁критическо 2
▁крича 6
▁кро 1
▁кром 10
▁крохотн 2
▁кругл 3
▁кругло 2
▁круж 5
▁круп 8
▁крупнейш 3
▁крупны 5
▁крут 2
▁крути 4
▁круто 2
▁крыл 5
▁ку 11
▁куби 4
▁кубик 11
▁кукл 5
▁кукол 3
▁кукуруз 5
▁кул 1
▁кулак 8
▁кулон 2
▁кулончик 4
▁культ 2
▁культур 11
▁культура 5
▁культурно 7
▁культурны 6
▁культурологи 2
▁купи 10
▁купл 2
▁кур 3
▁кури 10
▁курил 2
▁курс 4
▁кухн 3
▁лаборатори 6
▁лагер 2
▁лад 6
▁лай 2
▁лайтер 3
▁лаконичн 2
▁ларчик 5
▁лауреат 2
▁ле 7
▁лев 13
▁лег 20
▁ледяно 2
▁леж 6
▁лежал 3
▁лежат 2
▁лекарств 6
▁лен 5
▁ленив 2
▁лес 6
▁лестниц 3
▁лет 43
▁лечение 2
▁лечи 6
▁ли 56
▁либ 24
▁либет 5
▁лидер 9
▁лидерств 3
▁лиз 4
▁лиза 20
▁лини 7
▁лис 4
▁литератур 5
▁литературно 5
▁лиц 6
▁лица 11
▁лицемер 2
▁лицо 4
▁личн 3
▁лично 4
▁личност 6
▁личностны 2
▁личность 3
▁лиш 5
▁лишени 2
▁логик 2
▁локальны 3
▁ломает 2
▁лу 5
▁лучш 4
▁лучше 30
▁лучши 7
▁льш 2
▁люб 62
▁люби 6
▁любил 7
▁любим 18
▁любит 2
▁любительск 2
▁любовн 2
▁любовь 12
▁любопыт 4
▁любя 10
▁люд 230
▁людя 19
▁лёгки 3
▁магазин 8
▁маги 7
▁майк 2
▁мак 3
▁максим 10
▁мал 3
▁малейш 3
▁маленьк 11
▁маленьки 23
▁мало 23
▁малы 9
▁мальчишк 4
▁мам 27
▁мани 8
▁манипулировани 4
▁манипулиру 6
▁манипуляци 4
▁ману 3
▁марафон 9
▁марафонск 2
▁маргинал 3
▁мари 5
▁марк 6
▁маркетинг 3
▁марс 2
▁марсел 2
▁маршрут 2
▁масл 2
▁масс 4
▁массов 3
▁массово 6
▁мастер 5
▁масштаб 10
▁масштабны 2
▁математик 4
▁математическ 3
▁матер 4
▁материальн 1
▁материально 5
▁матриц 3
▁машин 4
▁машинк 2
▁ме 9
▁мебель 3
▁мед 5
▁меди 3
▁медик 3
▁медицин 3
▁медицинск 3
▁медл 2
▁медленно 3
▁медли 5
▁меж 3
▁между 31
▁международн 6
▁международны 5
▁мексикан 3
▁мел 3
▁мен 8
▁мене 16
▁менеджер 4
▁ментальн 2
▁меньше 19
▁меньши 2
▁меньшинств 3
▁меня 116
▁меняет 16
▁менять 9
▁меняют 9
▁месс 3
▁мест 2
▁места 14
▁местны 14
▁местным 6
▁место 26
▁месяц 11
▁мет 4
▁метаболи 2
▁метан 4
▁метафор 12
▁метод 7
▁методик 2
▁метро 2
▁метформин 5
▁механизм 12
▁механическо 3
▁мечт 10
▁мечта 17
▁мечтал 2
▁мечтам 3
▁меш 8
▁микро 1
▁микроб 18
▁микробам 4
▁микробиот 14
▁мил 5
▁милли 3
▁миллион 14
▁мини 3
▁минут 9
▁мир 141
▁мирово 7
▁мировоззрени 4
▁мироздани 3
▁мисси 3
▁миха 3
▁младенц 3
▁млекопитающи 5
▁мне 126
▁мнени 10
▁мно 17
▁многи 34
▁много 77
▁многогранн 2
▁многом 5
▁многообрази 2
▁многочисленны 2
▁множеств 8
▁мо 97
▁мобильн 3
▁мог 11
▁могл 18
▁могу 46
▁модел 3
▁модели 4
▁модель 9
▁модно 2
▁може 47
▁может 136
▁мозг 24
▁мозга 14
▁мои 9
▁моим 7
▁молитв 2
▁молни 3
▁молод 10
▁молоды 6
▁молодёжь 2
▁молоко 3
▁момент 85
▁монах 4
▁монитор 2
▁монооксид 2
▁монументальн 2
▁мор 3
▁моро 2
▁морожен 1
▁морожено 8
▁москв 17
▁московски 2
▁московско 3
▁мост 3
▁мотив 5
▁мотиваци 4
▁моторны 5
▁мощн 2
▁мощнейш 2
▁мощно 2
▁мою 4
▁моё 14
▁мудр 2
▁муж 8
▁мужик 4
▁мужчин 8
▁музе 8
▁музеон 2
▁музея 5
▁музык 10
▁музыка 7
▁музыкал 3
▁музыкант 2
▁мультик 7
▁мура 4
▁мус 3
▁мучае 2
▁мучительн 2
▁мы 566
▁мысл 11
▁мысли 15
▁мыш 6
▁мышлени 14
▁мышц 4
▁мягк 3
▁мяс 20
▁мясо 19
▁мяч 8
▁мёртв 3
▁мёртвы 5
▁н 9
▁на 860
▁наблюда 4
▁наблюдения 2
▁наверн 30
▁навык 9
▁наглядн 3
▁наглядно 3
▁наград 3
▁над 15
▁наде 10
▁надежд 4
▁наднациональн 1
▁наднационально 2
▁назва 15
▁назвал 2
▁названи 5
▁название 5
▁назнач 4
▁называ 6
▁называем 5
▁называемо 3
▁называемы 7
▁называет 15
▁называл 2
▁называют 5
▁наибол 6
▁наибольш 2
▁найден 3
▁найдёт 3
▁накаплива 3
▁нако 18
▁налич 2
▁наличи 3
▁налюбленн 2
▁нам 133
▁намерени 3
▁наносит 2
▁нап 9
▁написал 9
▁написан 22
▁напитк 2
▁наполненн 3
▁наполня 1
▁напомина 4
▁напоминание 2
▁напор 5
▁направлени 2
▁напряжё 1
▁напряжённ 3
▁напуга 2
▁нарисова 1
▁нарисован 2
▁народ 6
▁наруш 1
▁наруша 3
▁нас 137
▁насвистыва 3
▁насел 8
▁наследи 2
▁наследие 13
▁наследств 2
▁насмешк 2
▁наст 11
▁настоящ 8
▁настояще 7
▁настоящем 6
▁настоящи 10
▁настроени 3
▁настроение 9
▁насыщенн 2
▁наталь 2
▁натура 2
▁наук 37
▁научил 9
▁научить 25
▁научно 11
▁научны 10
▁находил 2
▁находим 6
▁находит 17
▁нахожу 3
▁национально 7
▁национальные 5
▁нача 12
▁начал 15
▁начала 6
▁начали 14
▁начальник 2
▁начина 10
▁начинает 18
▁начинал 2
▁начинаю 18
▁начинающи 2
▁начни 3
▁начну 2
▁начнё 6
▁начнёт 7
▁наш 48
▁наше 77
▁нашем 21
▁наши 60
▁нашим 14
▁не 1234
▁небольш 4
▁небольши 5
▁невед 2
▁неверно 2
▁невероятн 3
▁невероятно 18
▁невин 2
▁невкусны 2
▁невозможно 13
▁невостребован 1
▁невском 2
▁невыносим 2
▁невыносимо 3
▁негатив 3
▁недел 16
▁недель 6
▁недо 6
▁недостат 2
▁нежелани 2
▁нежн 6
▁неза 3
▁независимо 6
▁незнакомы 2
▁незряч 4
▁неизбежн 2
▁неизбежно 3
▁неизвестн 3
▁нейро 3
▁нейрон 2
▁нейроучёны 6
▁нейроэкономи 2
▁некотор 1
▁некоторо 5
▁некоторы 7
▁нематериально 3
▁немног 2
▁немнож 8
▁ненави 2
▁ненужн 1
▁необразованн 2
▁необходим 1
▁необходимо 10
▁необходимы 3
▁необычн 2
▁неодно 2
▁неожиданно 5
▁неожиданны 2
▁неплох 3
▁неповторим 2
▁непонятно 7
▁непосредственно 3
▁непосредственны 2
▁непохож 2
▁неправ 3
▁неправильн 3
▁неприглядн 2
▁неприятн 1
▁неприятны 2
▁непросто 4
▁нераз 3
▁нерв 1
▁нескольк 5
▁нестареющ 2
▁несчаст 2
▁несчастны 5
▁нет 74
▁неумени 2
▁нехорош 4
▁нечестны 2
▁ни 139
▁нижни 3
▁низки 4
▁никак 31
▁никит 4
▁нико 7
▁никог 37
▁никола 3
▁ним 37
▁нич 50
▁ничто 3
▁но 327
▁нобелевск 2
▁нов 16
▁ново 15
▁нового 5
▁новорождённ 2
▁новост 7
▁новы 33
▁новым 11
▁ног 15
▁ножк 2
▁норм 6
▁нормально 5
▁нормальны 2
▁носит 3
▁нрави 12
▁ну 113
▁нужн 8
▁нужно 63
▁нынешн 1
▁нынешне 3
▁о 279
▁об 69
▁обвин 3
▁обед 2
▁обеда 3
▁обезьян 4
▁обеспечи 4
▁обеща 3
▁обещание 4
▁обид 3
▁обита 4
▁обла 4
▁облада 13
▁област 9
▁облегч 1
▁облегча 3
▁облич 2
▁обменя 2
▁обнаружи 2
▁обнаружил 8
▁обнаружит 3
▁обнимаю 2
▁обнов 2
▁обобщени 2
▁обобщи 2
▁обознач 5
▁обор 4
▁обр 5
▁обработа 6
▁обработк 6
▁образ 27
▁образа 7
▁образо 25
▁образовани 10
▁образование 8
▁обрати 4
▁обратил 3
▁обратит 2
▁обратн 5
▁обратно 9
▁обращае 2
▁обращал 2
▁обращать 5
▁обращен 3
▁обру 2
▁обрыв 3
▁обстоятельств 1
▁обстоятельства 3
▁обсужда 3
▁обучени 5
▁обща 14
▁обще 40
▁общени 5
▁обществ 3
▁общества 8
▁обществе 11
▁общественно 5
▁общественном 3
▁общественны 6
▁общество 6
▁общечеловеческ 2
▁объедини 5
▁объединя 2
▁объект 7
▁объявля 2
▁объясн 2
▁объяснени 4
▁объяснение 3
▁объясни 3
▁объяснил 3
▁объясня 5
▁объясняет 4
▁объём 2
▁обыч 1
▁обычн 2
▁обычно 24
▁обычны 9
▁обязан 2
▁обязательно 15
▁овощ 10
▁огне 2
▁ограничен 1
▁ограничени 3
▁ограниченн 3
▁огромн 2
▁огромно 14
▁огромны 13
▁огур 2
▁одарива 2
▁одежд 4
▁одет 3
▁одеяло 2
▁один 66
▁одинок 3
▁одиноки 3
▁одиноче 2
▁одн 15
▁одна 53
▁одним 15
▁одно 61
▁одном 6
▁ожи 3
▁ожида 2
▁ожидаем 4
▁ожидани 7
▁озар 3
▁озарения 2
▁озвучи 2
▁означа 11
▁окажет 3
▁оказал 13
▁оказывае 3
▁оказывает 13
▁оказывают 2
▁океан 5
▁океански 2
▁окна 3
▁около 6
▁оконча 2
▁окончательн 2
▁окруж 3
▁окружающе 4
▁окружающи 6
▁оксид 2
▁олигархи 3
▁омоло 3
▁омск 3
▁он 730
▁опас 1
▁опасн 2
▁опасност 5
▁опасны 4
▁операт 2
▁опира 2
▁описа 1
▁описыва 7
▁опла 2
▁опозна 2
▁опосредован 2
▁оправда 2
▁определени 2
▁определи 5
▁определило 2
▁определя 2
▁определяю 4
▁определённ 2
▁опро 2
▁оптими 2
▁опыт 10
▁ор 5
▁орган 6
▁организ 2
▁организаци 10
▁организм 7
▁организова 4
▁организованн 2
▁орех 2
▁ориентирован 2
▁осваива 3
▁освещ 2
▁освобожда 3
▁освоени 2
▁осен 3
▁оскар 2
▁оскорб 3
▁ослаб 2
▁осмел 4
▁основ 7
▁основа 4
▁основн 14
▁основны 8
▁особ 2
▁особенно 5
▁особенност 4
▁особо 3
▁осозна 7
▁осознани 4
▁осознанно 4
▁осознанност 2
▁осознанность 3
▁осознаё 2
▁оста 5
▁остава 4
▁оставал 2
▁остави 4
▁оставил 5
▁оставляе 1
▁оставш 2
▁остал 14
▁остально 4
▁остальны 6
▁остан 3
▁останавлива 3
▁останавливаю 2
▁останов 6
▁остановить 2
▁остаё 2
▁осторожно 4
▁осторожны 2
▁остро 2
▁остров 4
▁осуществ 3
▁от 233
▁ответ 23
▁ответственност 10
▁ответственны 5
▁отвеча 3
▁отвечает 6
▁отвечаю 3
▁отда 8
▁отдел 7
▁отдела 4
▁отдельн 1
▁отдельно 12
▁отдельны 2
▁отдых 2
▁отдыха 5
▁отк 16
▁откладыва 4
▁откладывани 2
▁отклик 2
▁откровенн 2
▁откры 4
▁открыва 7
▁открывает 6
▁открыл 5
▁открыли 4
▁открыт 3
▁открыти 3
▁открытие 4
▁открытост 2
▁открыты 4
▁отлич 2
▁отлича 4
▁отличаем 2
▁отличает 5
▁отличи 7
▁отмени 2
▁отменяет 2
▁отмираю 2
▁относи 2
▁относит 3
▁относительн 1
▁относительно 4
▁относить 4
▁относят 4
▁отнош 3
▁отношени 21
▁отношения 26
▁оторва 2
▁отправи 3
▁отправил 3
▁отправля 2
▁отправьте 2
▁отпускае 4
▁отрасл 2
▁отрица 3
▁отрыв 2
▁отслежива 3
▁отсмартирова 2
▁отстаива 2
▁отсутстви 4
▁отсутству 3
▁отт 13
▁отч 2
▁отчитыва 2
▁отчёт 3
▁офис 2
▁оценива 2
▁оценк 2
▁оче 205
▁очевидн 5
▁очевидно 6
▁очеред 13
▁ошиб 3
▁ошибк 6
▁ощуща 5
▁ощущени 8
▁п 25
▁па 14
▁пада 4
▁пал 5
▁палат 5
▁паллиативн 3
▁пальц 4
▁памят 7
▁пан 2
▁пансион 6
▁пап 19
▁папу 3
▁пар 14
▁парадигм 6
▁парадокс 7
▁паралимпийск 1
▁паралимпийски 4
▁параллел 3
▁паре 4
▁париж 2
▁парни 2
▁парниковы 5
▁пароход 2
▁партнёр 9
▁паст 5
▁патриарх 2
▁пациент 8
▁пе 9
▁педагогическ 2
▁пекар 2
▁пенси 3
▁пер 3
▁перв 20
▁первичны 2
▁перво 36
▁первобытны 3
▁первом 7
▁первы 30
▁пере 49
▁перевари 3
▁переварива 6
▁перевод 2
▁переводит 2
▁переговор 4
▁перед 44
▁передач 6
▁передви 2
▁переехал 2
▁пережива 3
▁переживает 4
▁пережил 2
▁переме 2
▁перемен 3
▁переместил 3
▁перерыв 2
▁переста 6
▁перестал 4
▁перестане 4
▁перестраива 2
▁перехват 2
▁перешл 2
▁период 9
▁персона 3
▁персонал 4
▁персональн 2
▁перспективн 2
▁песн 2
▁песочн 2
▁петербург 3
▁печаль 3
▁печально 3
▁печат 2
▁пи 16
▁пик 8
▁пинк 2
▁пис 2
▁писа 3
▁писал 12
▁писатель 3
▁пистолет 4
▁письм 6
▁пита 11
▁питает 3
▁питани 4
▁питание 3
▁пицц 3
▁пише 5
▁пишут 5
▁пищ 4
▁пищев 3
▁пищеварени 2
▁пл 4
▁пла 6
▁плав 2
▁плава 3
▁плавание 3
▁плака 2
▁план 11
▁планет 23
▁планетарн 3
▁планирова 3
▁планёрк 5
▁пласт 2
▁плать 5
▁пле 6
▁плеча 3
▁плини 6
▁плод 2
▁плодо 4
▁плодотворн 2
▁плоскост 2
▁плот 2
▁плотно 8
▁плоха 3
▁плохи 2
▁плохо 18
▁площад 3
▁площадк 5
▁плы 4
▁по 333
▁пове 2
▁поведени 9
▁повер 2
▁поверит 3
▁повернул 6
▁поверхност 4
▁повод 12
▁повор 2
▁повседневн 1
▁повседневно 4
▁повтор 5
▁повторил 3
▁повторяет 2
▁повторял 4
▁повыша 3
▁погиб 2
▁поглощ 2
▁поговори 7
▁погод 3
▁погре 2
▁погруж 2
▁погуглит 3
▁под 56
▁подавленн 1
▁подавленно 2
▁подар 2
▁подари 5
▁подарил 4
▁подверга 2
▁подвергают 3
▁подво 2
▁подготовить 3
▁подготовк 4
▁поддержа 5
▁поддержива 2
▁поддерживает 4
▁поддержк 8
▁подели 8
▁подним 15
▁поднимает 4
▁поднимать 5
▁поднимают 2
▁поднял 3
▁поднят 2
▁поднять 11
▁подобно 5
▁подобны 5
▁подожди 5
▁подозр 4
▁подпис 2
▁подписа 2
▁подписан 2
▁подписыва 2
▁подробн 2
▁подрост 3
▁подтверждает 3
▁подума 2
▁подумал 12
▁подход 7
▁подходи 6
▁подчин 2
▁подчёркива 2
▁подъезд 6
▁поезд 5
▁поездк 2
▁пожа 3
▁пожалуй 17
▁пожил 3
▁позволи 4
▁позволя 15
▁позвонил 3
▁поздн 7
▁позитивно 4
▁позитивны 6
▁позици 4
▁позна 3
▁познаком 1
▁познакоми 4
▁поигра 6
▁поиск 11
▁поиска 8
▁пойд 2
▁пойдё 8
▁пойм 2
▁поймё 4
▁поймёт 4
▁пока 22
▁покажу 3
▁показ 3
▁показа 4
▁показал 5
▁показать 8
▁показы 2
▁показываю 5
▁поколени 5
▁поку 4
▁покупа 7
▁покуш 4
▁пол 12
▁полага 2
▁поле 9
▁полезн 2
▁полезно 3
▁полезны 4
▁полз 2
▁полисахарид 4
▁полити 3
▁политическ 2
▁политически 11
▁политологи 3
▁полно 13
▁полны 4
▁полов 2
▁половин 5
▁положи 5
▁полотн 2
▁полу 4
▁получа 8
▁получает 22
▁получаю 4
▁получен 3
▁получи 8
▁получил 13
▁получила 3
▁получит 8
▁пользоват 1
▁пользует 4
▁пользую 2
▁полю 2
▁поменял 3
▁поменять 5
▁помер 2
▁помещени 2
▁помидор 4
▁помн 2
▁помни 7
▁помнит 9
▁помо 12
▁помог 3
▁помога 4
▁помогал 6
▁помогаю 6
▁поможе 3
▁помощ 4
▁помощь 10
▁помыты 2
▁понадоби 3
▁понедельник 9
▁понедельникам 2
▁понима 35
▁понимает 20
▁понимал 7
▁понимаю 22
▁поня 13
▁понял 28
▁поняти 6
▁понятия 3
▁понятным 2
▁пообща 4
▁попа 4
▁попадае 3
▁попадал 2
▁попаду 2
▁попробова 6
▁попробу 3
▁попробуй 8
▁попросил 4
▁попу 3
▁популяризаци 5
▁популярн 2
▁популярны 8
▁попыта 10
▁попытк 2
▁пор 28
▁поряд 2
▁порядк 22
▁пос 7
▁посад 5
▁посвя 2
▁поселени 3
▁посид 4
▁после 33
▁последн 3
▁последне 5
▁последни 15
▁последстви 5
▁посмотре 13
▁посмотрел 2
▁посмотри 17
▁поспори 3
▁пост 7
▁постав 4
▁поставил 5
▁поставлен 1
▁постар 3
▁поствестфальски 2
▁постоянно 19
▁построен 2
▁построени 4
▁постулат 3
▁поступа 3
▁поступи 2
▁поступил 3
▁поступк 4
▁посчита 5
▁посчитал 3
▁посыла 1
▁потенциал 2
▁потенциально 2
▁потере 2
▁потеря 6
▁поток 10
▁потом 226
▁потр 4
▁потрати 4
▁потребител 2
▁потреблени 4
▁потребност 7
▁потряса 2
▁потрясающ 4
▁потрясени 2
▁похвал 1
▁похвалит 2
▁похож 6
▁похоже 6
▁похожи 8
▁похорон 7
▁поч 64
▁почв 3
▁почита 3
▁почётно 2
▁пошл 6
▁поэт 2
▁поэто 60
▁появи 3
▁появил 18
▁появление 2
▁появля 11
▁поясн 5
▁прав 8
▁правд 6
▁правил 3
▁правила 9
▁правило 15
▁правильн 18
▁правнук 2
▁право 13
▁праздни 3
▁практик 5
▁практически 19
▁практическо 2
▁пре 19
▁прев 2
▁превратил 4
▁превратить 3
▁превраща 4
▁превращает 7
▁пред 19
▁предел 11
▁предлага 1
▁предлагае 3
▁предлагаю 3
▁предложени 2
▁предложил 7
▁предмет 4
▁предметам 2
▁предназначен 3
▁предостав 2
▁предполага 3
▁предположени 4
▁предположи 9
▁предпочтени 4
▁предпринимател 6
▁предприниматель 10
▁предпринимателя 11
▁предс 4
▁предсказа 6
▁представ 9
▁представи 16
▁представим 4
▁представителя 2
▁представлен 2
▁представлени 10
▁представления 3
▁представляе 3
▁представляет 5
▁представляю 3
▁предшеству 5
▁предыдущ 3
▁прежне 4
▁презентаци 2
▁президент 3
▁преимуществ 2
▁преиспо 2
▁прекрас 1
▁прекрасн 2
▁прекрасно 8
▁прекрасны 5
▁прекрати 3
▁преми 5
▁преобра 2
▁преобража 3
▁преодол 2
▁преодолева 2
▁препарат 4
▁прерыва 4
▁преступ 2
▁при 97
▁приближа 3
▁прибыл 2
▁прибыль 2
▁прив 6
▁привед 2
▁привел 7
▁привет 3
▁привлека 3
▁привод 6
▁приводит 8
▁привоз 4
▁привык 1
▁привыкл 5
▁привыч 1
▁привычк 4
▁привычкам 3
▁привычн 3
▁привяз 3
▁пригласит 2
▁приглаша 2
▁приговор 2
▁прид 3
▁приду 3
▁придума 12
▁придумал 12
▁придумыва 5
▁придёт 3
▁приезжа 1
▁приезжал 3
▁приезжаю 2
▁приеха 2
▁приехал 5
▁призна 2
▁признак 6
▁признал 3
▁признан 2
▁признание 2
▁признать 6
▁прикладн 2
▁прикосн 3
▁приле 2
▁приличн 2
▁примен 3
▁применя 2
▁применяем 2
▁пример 44
▁принадлеж 3
▁принима 1
▁принимае 6
▁принимает 5
▁принимал 4
▁принимаю 2
▁принцип 10
▁приня 6
▁принял 7
▁принят 4
▁приняти 8
▁приняты 2
▁приобр 2
▁приобрет 2
▁приобрета 3
▁приоритет 3
▁природ 18
▁прирост 2
▁прис 5
▁прислушивае 2
▁присоединя 3
▁приспос 1
▁присутствова 2
▁присутствую 5
▁притягива 2
▁приходит 18
▁прихожан 2
▁причин 6
▁причина 9
▁причине 4
▁причё 12
▁пришл 21
▁пришло 3
▁приятно 6
▁приятны 2
▁про 139
▁проанализирова 3
▁проб 3
▁проблем 32
▁проблема 27
▁пробова 4
▁пробу 2
▁проведени 4
▁провел 4
▁провери 3
▁проверя 2
▁провинци 2
▁проводи 4
▁проводил 3
▁проводит 2
▁проводя 3
▁провож 2
▁прогноз 2
▁проговор 2
▁программ 12
▁программист 3
▁прогресс 3
▁прогрессивны 2
▁прод 2
▁продаж 6
▁продажам 2
▁продлева 4
▁продлени 8
▁продолж 3
▁продолжа 5
▁продолжает 10
▁продолжать 4
▁продолжени 3
▁проду 2
▁продукт 8
▁проект 26
▁проекта 5
▁проектн 3
▁проживё 2
▁прожил 2
▁проигра 2
▁произведени 1
▁произведение 6
▁произво 4
▁производи 2
▁производим 3
▁производит 2
▁производств 2
▁производства 6
▁производство 4
▁произо 6
▁произой 3
▁произошл 22
▁происходи 3
▁происходит 66
▁происходя 7
▁происхождение 2
▁пройд 2
▁прокат 2
▁промедлени 9
▁промышленност 5
▁пропа 3
▁пропавш 5
▁пропавшим 2
▁пропаганди 2
▁пропал 4
▁прописа 2
▁проповедуе 2
▁пропорци 4
▁пропу 2
▁пророк 2
▁просветител 2
▁просил 4
▁проспект 2
▁прост 16
▁простит 3
▁просто 114
▁пространств 12
▁пространство 13
▁просты 6
▁простым 4
▁просыпа 2
▁протестант 3
▁протестантизм 4
▁против 5
▁противо 2
▁противоположн 3
▁противоречи 2
▁противостоя 3
▁протя 5
▁протяну 3
▁професс 2
▁професси 11
▁профессиональн 3
▁профи 3
▁прохлад 2
▁проходил 5
▁проходит 9
▁проходят 6
▁прохож 3
▁процедур 13
▁процент 4
▁процесс 46
▁проч 3
▁прочи 3
▁прочита 3
▁прочитал 4
▁прочн 3
▁прош 6
▁прошло 11
▁прощаю 2
▁проще 6
▁проявления 2
▁проявлять 2
▁проявляют 2
▁прям 2
▁прямо 16
▁псевдо 2
▁психи 2
▁психически 3
▁психологи 10
▁психологическ 2
▁пу 14
▁публикаци 3
▁пуговиц 2
▁пукаю 2
▁пуль 2
▁пункт 5
▁пус 4
▁пуска 3
▁пут 9
▁путешественник 5
▁путешестви 9
▁путешествия 7
▁путешеству 2
▁пути 8
▁пушкин 6
▁пыл 2
▁пытае 5
▁пытал 11
▁пытаю 7
▁пят 7
▁пяти 4
▁пять 18
▁р 6
▁ра 19
▁раб 7
▁работ 31
▁работа 48
▁работает 29
▁рабоч 4
▁рабочи 5
▁равно 14
▁рад 7
▁ради 4
▁радикальн 2
▁радост 17
▁радостн 8
▁раз 124
▁разве 3
▁развивает 8
▁развивал 2
▁развивало 3
▁развивать 6
▁развивают 4
▁развит 6
▁развити 19
▁развод 2
▁разговарива 10
▁разговор 5
▁раздел 7
▁разделили 3
▁разделяет 2
▁разжа 2
▁различи 2
▁различн 2
▁размер 3
▁размнож 2
▁размножа 2
▁размножил 2
▁размышля 2
▁разниц 6
▁разно 8
▁разнообрази 2
▁разнообразно 2
▁разнообразны 3
▁разноцветны 2
▁разны 53
▁разным 6
▁разоблач 2
▁разобра 6
▁разобщённ 2
▁разочарован 3
▁разреза 4
▁разреши 1
▁разрешил 4
▁разруш 5
▁разруша 5
▁разрыв 3
▁разум 16
▁разумны 2
▁рак 6
▁раков 2
▁рамк 9
▁ран 8
▁ранн 4
▁рас 23
▁расизм 2
▁раскладыва 2
▁раскол 2
▁раскрыва 3
▁расписани 2
▁расплыв 2
▁распоряжени 2
▁расс 4
▁расскажу 7
▁рассказ 2
▁рассказа 6
▁рассказал 8
▁рассказыва 18
▁рассматривает 2
▁рассматривать 3
▁расставит 2
▁расстояни 4
▁расстраива 2
▁рассудочны 2
▁рассы 2
▁раст 7
▁раствор 2
▁расти 4
▁расход 6
▁расчёт 2
▁расширит 2
▁расширя 6
▁рацион 6
▁рационально 6
▁ре 30
▁реабилит 3
▁реагирова 4
▁реагиру 1
▁реагируе 7
▁реакци 23
▁реализаци 6
▁реализовал 2
▁реализовать 5
▁реальн 2
▁реально 14
▁ребят 10
▁ребён 26
▁ребёнк 32
▁ревиз 2
▁революци 7
▁региона 2
▁регионализм 2
▁региональны 2
▁регулярно 3
▁редк 1
▁режим 3
▁режиссёр 5
▁результат 48
▁рейтингам 3
▁реклам 2
▁рекоменд 3
▁рекомендаци 5
▁рекомендую 3
▁религиозност 2
▁религия 2
▁ремесленника 2
▁ремесло 2
▁ремонт 2
▁рептил 2
▁рептили 5
▁репутаци 3
▁республик 2
▁ресторан 2
▁ресурс 14
▁рефлекси 2
▁реформ 2
▁рецензи 2
▁реша 13
▁решает 2
▁решени 11
▁решение 21
▁решения 34
▁реши 6
▁решил 20
▁римск 5
▁риск 6
▁рискну 2
▁рисова 2
▁рисовал 3
▁рису 3
▁рисунк 6
▁рит 3
▁роберт 2
▁робо 3
▁ровно 9
▁род 15
▁родил 9
▁родител 20
▁родитель 3
▁родителя 6
▁родно 4
▁родны 4
▁родств 2
▁родственник 5
▁рождае 6
▁рождени 8
▁рождеств 2
▁розетк 3
▁розова 3
▁рол 14
▁роман 2
▁романов 2
▁романтическ 6
▁роскошны 2
▁росси 20
▁российски 2
▁российско 3
▁рост 7
▁рот 3
▁руб 2
▁рубенс 2
▁рубл 2
▁рудольф 2
▁рук 56
▁рука 12
▁руками 4
▁руководств 2
▁руководству 4
▁рукопис 3
▁русск 11
▁русски 4
▁рухн 3
▁ручк 3
▁рыб 2
▁рын 4
▁ряд 20
▁с 867
▁сад 10
▁садик 2
▁садово 2
▁сайт 7
▁сакрально 5
▁сакральны 2
▁сакральным 5
▁сам 30
▁сама 6
▁сами 30
▁самим 11
▁само 78
▁самолёт 3
▁самом 78
▁самоотверженно 2
▁самоубийств 3
▁самы 50
▁самым 13
▁сахар 2
▁саш 16
▁свер 3
▁свет 18
▁светле 3
▁светло 2
▁светлы 2
▁светск 3
▁свид 2
▁свидетель 1
▁свидетельств 4
▁свихну 2
▁сво 126
▁свобод 45
▁свободе 9
▁свободно 4
▁свободны 6
▁свободным 4
▁свои 56
▁своим 24
▁свой 19
▁свойств 5
▁свойственн 2
▁своё 27
▁связ 10
▁связан 12
▁связь 4
▁свято 5
▁святы 3
▁священн 5
▁священник 6
▁сдв 2
▁сдела 82
▁сделает 6
▁сделал 14
▁себ 149
▁северн 2
▁сегодня 54
▁сегодняшни 4
▁седьм 3
▁сезон 2
▁секрет 5
▁секунд 7
▁секци 2
▁семейн 2
▁семейны 2
▁семи 2
▁семинар 3
▁семь 6
▁семье 5
▁семья 7
▁сенат 2
▁сер 13
▁серге 2
▁сердечко 8
▁сердце 7
▁середин 3
▁серьёзн 1
▁серьёзно 8
▁серьёзны 4
▁сечени 6
▁сжаты 5
▁сжигали 2
▁сжимает 2
▁сжимал 2
▁сигар 6
▁сигнал 16
▁сигнала 3
▁сиде 4
▁сидел 3
▁сидит 11
▁сидя 6
▁сил 14
▁сила 3
▁сильн 3
▁сильно 13
▁сильны 7
▁символ 4
▁симпатичны 2
▁сини 4
▁систем 16
▁система 4
▁системати 4
▁ситн 2
▁ситуаци 35
▁сиюминутн 3
▁скаже 17
▁скажет 4
▁скажи 5
▁скажу 20
▁сказ 3
▁сказа 44
▁сказал 42
▁скандал 7
▁сквер 2
▁сколько 25
▁скор 18
▁скорб 3
▁скорость 2
▁скр 2
▁скрипк 9
▁скромно 2
▁скромны 2
▁скрыт 2
▁скрыто 4
▁скульптор 5
▁скучн 1
▁скучно 3
▁слаб 2
▁слабо 2
▁слав 3
▁сладк 3
▁сладко 3
▁слайд 2
▁след 19
▁следствие 4
▁следуе 5
▁следующ 2
▁следующе 7
▁следующи 17
▁слеза 3
▁слеп 7
▁слов 7
▁слова 22
▁слово 15
▁сложивш 2
▁сложил 6
▁сложн 3
▁сложне 5
▁сложно 13
▁сложност 6
▁сложны 3
▁слуг 5
▁служ 5
▁случа 2
▁случае 18
▁случай 7
▁случайно 6
▁случайност 2
▁случил 12
▁случит 9
▁слуша 7
▁слушай 5
▁слушател 3
▁слыш 3
▁слыша 7
▁слыши 3
▁слышит 4
▁смело 1
▁смелост 3
▁смерт 11
▁смерть 8
▁смес 3
▁смех 19
▁смеш 3
▁смешно 2
▁смеё 4
▁смир 3
▁смог 4
▁смогл 6
▁смогу 5
▁сможе 4
▁сможет 4
▁смотр 1
▁смотре 13
▁смотрел 2
▁смотри 5
▁смотрит 23
▁смысл 27
▁сним 2
▁снято 2
▁со 127
▁собира 7
▁собор 3
▁собра 6
▁собрала 2
▁собрали 2
▁собственн 10
▁собственно 27
▁событи 3
▁события 4
▁совершенно 34
▁совершил 3
▁совет 4
▁советова 2
▁советск 3
▁совету 3
▁совмест 2
▁совместно 3
▁современн 1
▁современно 5
▁современном 4
▁современны 4
▁согласи 3
▁согласн 3
▁соглаша 4
▁согре 4
▁содержание 2
▁содержат 4
▁соедин 9
▁соединени 2
▁сож 6
▁созда 29
▁создава 9
▁создал 4
▁создан 2
▁создани 11
▁создаёт 12
▁созидат 3
▁сознани 6
▁сознание 10
▁сознательно 2
▁сокровищ 5
▁солдат 4
▁солн 2
▁солнечн 2
▁солнц 3
▁соломон 3
▁сомнева 4
▁сомнени 6
▁сомнительны 3
▁сообразил 2
▁сообща 7
▁сообщает 2
▁сообщение 9
▁сообществ 9
▁соотве 2
▁соответств 3
▁соответствующ 3
▁сопровожда 2
▁сосед 3
▁соседне 3
▁соседни 2
▁соста 2
▁состав 3
▁состави 3
▁составля 2
▁составляющ 4
▁состоял 3
▁состояни 15
▁состояние 12
▁сосуд 2
▁сотн 7
▁сотрудник 3
▁сохрани 5
▁сохраня 3
▁соц 2
▁социальн 6
▁социальны 8
▁социолог 3
▁социум 2
▁сочи 2
▁союз 6
▁сп 11
▁спальн 3
▁спас 13
▁спасени 2
▁спектакл 5
▁специалист 5
▁специальн 2
▁специально 5
▁специальны 4
▁специфическ 1
▁специфически 4
▁специфическо 4
▁спин 5
▁спис 6
▁сплет 2
▁сплошно 2
▁спокойн 3
▁спор 5
▁спорт 11
▁спортивн 2
▁спортивны 5
▁спортсмен 6
▁способ 24
▁способност 6
▁способность 11
▁способны 6
▁справ 12
▁спрашива 5
▁спрашиваю 3
▁спро 2
▁спрос 4
▁спросил 8
▁спросит 8
▁спус 3
▁ср 3
▁сравнени 5
▁сравни 3
▁сравнива 3
▁сред 12
▁средне 5
▁средневеков 3
▁средневековы 3
▁средневековь 5
▁средневековье 9
▁средни 4
▁средств 5
▁средства 7
▁ссылк 4
▁ста 6
▁стабильн 3
▁став 2
▁стави 4
▁ставит 2
▁стади 2
▁стал 43
▁сталкива 4
▁стандартн 1
▁стандартно 3
▁стандартны 3
▁станет 9
▁становил 4
▁становит 22
▁становя 9
▁стану 7
▁стар 13
▁старени 12
▁старение 27
▁стартап 4
▁старше 5
▁стары 10
▁стасов 2
▁стат 2
▁статистик 6
▁статус 2
▁стать 14
▁стволов 4
▁стейк 5
▁стен 9
▁степен 5
▁степень 3
▁стереотип 4
▁стил 2
▁стиле 3
▁стиль 3
▁стих 3
▁сто 36
▁стоит 15
▁стол 6
▁столети 2
▁столкн 2
▁столкну 3
▁столкнул 4
▁столь 3
▁сторон 41
▁сторона 5
▁стоя 5
▁стоял 6
▁стоят 2
▁страда 2
▁стран 39
▁страниц 6
▁странно 4
▁страст 4
▁стратеги 4
▁стратегия 2
▁страх 7
▁страхов 2
▁страшн 4
▁страшно 19
▁страшны 4
▁стрелк 3
▁стреми 7
▁стремит 3
▁стремлени 1
▁стремление 4
▁стремя 3
▁стресс 4
▁строго 4
▁строи 5
▁строчк 2
▁стру 2
▁структур 15
▁студ 2
▁студент 3
▁сты 8
▁суббот 3
▁субботни 2
▁субъективн 1
▁субъективно 2
▁суверенитет 5
▁суд 3
▁судьб 5
▁сумасшедше 6
▁сумасшедши 3
▁суп 4
▁сут 12
▁суть 3
▁существ 10
▁существова 2
▁существовани 5
▁существу 20
▁существую 11
▁сфер 7
▁сформирова 1
▁сформировал 3
▁сформулирова 2
▁сформулировал 2
▁сформулирован 2
▁схем 3
▁схема 4
▁сходств 2
▁схож 2
▁сцен 9
▁сцена 3
▁сценари 8
▁счастлив 12
▁счастливы 9
▁счастливым 4
▁счасть 12
▁счастье 20
▁счита 4
▁считае 7
▁считает 2
▁считал 4
▁считали 3
▁считаю 5
▁считают 6
▁счёт 5
▁съе 2
▁сын 14
▁сюжет 2
▁сюжета 4
▁т 40
▁та 15
▁табл 3
▁табу 2
▁таинств 3
▁тайм 3
▁тайн 5
▁тайны 2
▁так 336
▁таки 45
▁таким 30
▁тако 149
▁таково 2
▁такси 2
▁татьян 4
▁тво 17
▁твор 5
▁творит 4
▁творческ 1
▁творчески 4
▁творческим 2
▁творческо 3
▁творчеств 11
▁твоё 5
▁твёрд 2
▁те 56
▁театр 9
▁теб 71
▁текст 8
▁текущем 2
▁тел 12
▁теле 8
▁телевидени 3
▁телевизор 10
▁телесно 3
▁телефон 7
▁тело 9
▁телом 3
▁тем 78
▁темнот 6
▁тенденци 2
▁теорем 5
▁теоретически 2
▁теори 2
▁теп 36
▁тепло 3
▁терапевтическ 1
▁терапевтическо 2
▁терапи 3
▁термин 5
▁терпе 3
▁территори 9
▁теряет 2
▁теряют 2
▁тест 6
▁тех 29
▁техник 6
▁техническ 2
▁технологи 11
▁технологическ 2
▁технологически 5
▁технологическо 3
▁тип 14
▁типичн 2
▁тихо 3
▁тихоокеанск 2
▁то 1038
▁товарищ 4
▁тог 63
▁толка 2
▁толкова 2
▁толсты 2
▁том 117
▁тонки 4
▁топлив 3
▁тор 6
▁тот 41
▁тотальн 3
▁точк 21
▁точн 7
▁точно 22
▁трав 2
▁травм 3
▁традици 2
▁традиционн 2
▁трайбализм 2
▁транс 3
▁транспорт 8
▁трансформ 3
▁трансформаци 3
▁трансформирую 3
▁тратя 2
▁требова 3
▁требовал 3
▁требует 6
▁требуют 5
▁тренера 5
▁тренинг 7
▁тренировк 4
▁тренирово 3
▁трети 13
▁треть 8
▁третье 8
▁три 45
▁тро 2
▁трога 2
▁трогательн 2
▁троиц 2
▁троллейбус 3
▁тру 3
▁труб 3
▁труд 8
▁трудно 16
▁трудност 2
▁трудов 2
▁трёх 10
▁трёхмерн 2
▁ту 26
▁туп 3
▁тут 30
▁тщательн 3
▁ты 158
▁тысяч 8
▁тюрьм 6
▁тя 4
▁тяг 2
▁тяжело 4
▁тяжёл 3
▁тёмн 2
▁тёмно 2
▁тёплы 2
▁тёт 2
▁у 435
▁уазик 3
▁убеди 3
▁убежал 3
▁убеждал 2
▁уби 4
▁убирает 2
▁уважа 1
▁уважающ 2
▁уважение 2
▁увелич 4
▁увеличива 4
▁увеличил 2
▁уверен 10
▁увиде 9
▁увидел 8
▁увиди 8
▁угл 5
▁углекисло 4
▁углерод 3
▁уго 14
▁уголк 3
▁угроз 3
▁удал 4
▁удар 4
▁удачн 2
▁удержать 2
▁удивительн 2
▁удивительно 9
▁удивительны 9
▁удивлени 3
▁удивля 3
▁удоб 1
▁удобн 2
▁удовлетворен 3
▁удовлетворя 3
▁удовольстви 7
▁уезжа 6
▁уж 148
▁ужас 1
▁ужасн 3
▁ужасны 5
▁узк 3
▁узна 18
▁узнавал 2
▁узнал 3
▁указательн 4
▁укладыва 1
▁украш 2
▁улиц 8
▁улучшени 2
▁улыб 5
▁улыбк 6
▁улыбну 2
▁уме 9
▁умел 2
▁умение 5
▁уменьш 2
▁уменьшает 2
▁уменьшать 2
▁умер 3
▁умерл 6
▁умею 11
▁умира 2
▁умирае 4
▁умирал 4
▁умираю 3
▁умнож 3
▁умны 6
▁универ 1
▁университет 4
▁уникальн 1
▁уникально 2
▁уникальны 4
▁унифицированны 3
▁уничтож 2
▁уничтожен 2
▁упакова 2
▁упло 2
▁упорядочени 4
▁управл 8
▁управля 6
▁упражнени 2
▁упро 2
▁уров 10
▁уровн 9
▁уровня 3
▁урок 4
▁усили 2
▁условие 5
▁условия 10
▁услыша 7
▁услыши 3
▁усн 3
▁успе 3
▁успева 3
▁успеет 3
▁успел 3
▁успех 3
▁успешн 3
▁уст 3
▁уста 3
▁устал 4
▁установ 3
▁установк 2
▁устарев 2
▁устойчивост 2
▁устойчивы 2
▁устраива 1
▁устроен 6
▁утвержда 2
▁утверждае 3
▁утверждаю 5
▁утопично 2
▁утратил 2
▁утро 7
▁уход 4
▁уходя 2
▁ухудш 3
▁уч 6
▁участ 3
▁участвова 3
▁участвовал 4
▁участву 4
▁участи 3
▁участник 8
▁учат 3
▁учебник 2
▁ученик 2
▁учили 5
▁учим 3
▁учит 5
▁учител 2
▁учитель 3
▁учитывать 2
▁учить 16
▁учён 3
▁учёны 37
▁учёт 2
▁ушл 7
▁ущерб 2
▁ф 13
▁фаз 2
▁фаза 2
▁факт 22
▁фактор 10
▁фантази 6
▁фантазийн 2
▁фантастическ 10
▁фар 3
▁фейсбук 3
▁фен 4
▁фестивал 5
▁фестиваль 7
▁фи 9
▁фигур 5
▁физик 5
▁физически 8
▁физическо 2
▁фиксирова 1
▁фил 4
▁философ 8
▁фильм 41
▁фильтр 15
▁финанс 2
▁финансирова 2
▁финансово 3
▁финансовы 2
▁флаг 2
▁флеминг 4
▁фло 2
▁флот 2
▁фокус 3
▁фол 2
▁фонд 4
▁форм 6
▁формат 3
▁формир 2
▁формиру 2
▁форму 3
▁формул 8
▁формулировк 2
▁фортеп 4
▁фото 5
▁фотограф 4
▁фотографи 8
▁фраз 4
▁франкенштейн 3
▁франци 7
▁французск 4
▁французски 3
▁фрукт 2
▁фундамент 2
▁фундаментальны 4
▁футбол 10
▁футболист 2
▁футбольны 3
▁характер 9
▁хват 7
▁хвост 2
▁хлеб 5
▁хо 17
▁хоббит 2
▁ход 7
▁ходит 3
▁хозя 3
▁хозяин 5
▁хол 2
▁холод 2
▁холодильник 3
▁холодно 6
▁холодны 3
▁хоронит 5
▁хорош 63
▁хороше 13
▁хороши 8
▁хорошим 4
▁хоспис 13
▁хоте 2
▁хотел 27
▁хоти 27
▁хотя 46
▁хоч 62
▁хочет 23
▁храм 4
▁хранит 5
▁христ 4
▁христиан 3
▁христианск 2
▁христианско 4
▁христо 2
▁хрон 3
▁худ 2
▁художественн 1
▁художественно 6
▁художественны 3
▁художник 20
▁ц 4
▁цар 5
▁цвет 7
▁цветно 2
▁цветущ 2
▁цел 15
▁цели 13
▁целы 7
▁цель 21
▁целям 2
▁цен 15
▁ценз 2
▁ценн 4
▁ценност 13
▁центр 12
▁центра 3
▁централизованн 2
▁центральн 2
▁цепн 2
▁церкв 7
▁церковн 3
▁церковны 4
▁церковь 6
▁ци 6
▁цивилизаци 6
▁циферблат 2
▁цифр 8
▁цифров 3
▁ч 3
▁ча 6
▁час 15
▁части 10
▁частно 8
▁часть 21
▁че 44
▁человек 171
▁человеч 3
▁человеческ 3
▁человечески 4
▁человечеств 4
▁человечество 8
▁чем 71
▁чемодан 3
▁чемоданчик 5
▁чемпион 2
▁черв 2
▁чере 37
▁черт 7
▁честн 7
▁четвер 2
▁четыр 11
▁четырёх 2
▁чиновника 2
▁числ 5
▁числе 11
▁чист 2
▁чита 11
▁читает 2
▁читал 6
▁читают 2
▁член 5
▁чрезвычайно 9
▁что 1373
▁чу 17
▁чувств 3
▁чувства 8
▁чувство 38
▁чувству 4
▁чувствуе 3
▁чувствует 9
▁чуд 3
▁чудесн 2
▁чудесно 3
▁чудесны 4
▁чуж 3
▁чужо 7
▁чё 30
▁чёрн 2
▁чёрны 2
▁чётко 5
▁ш 16
▁ша 7
▁шаг 11
▁шанс 3
▁шар 3
▁шахт 3
▁швей 2
▁шер 2
▁шест 5
▁шести 3
▁шир 5
▁широко 3
▁школ 24
▁школа 14
▁школьн 2
▁шо 5
▁шок 3
▁шпил 2
▁штат 5
▁шту 8
▁шу 5
▁шут 6
▁э 19
▁эвглен 2
▁эволюци 5
▁эволюционн 2
▁эк 8
▁экологическ 10
▁экономик 4
▁экономист 7
▁экономическ 1
▁экономически 4
▁экономическо 3
▁экран 5
▁экс 2
▁эксп 3
▁эксперимент 20
▁эксперимента 10
▁эксперт 3
▁экстр 2
▁электрическ 4
▁электро 2
▁элемент 6
▁элементарн 3
▁элитарн 2
▁эмоци 3
▁эмоциональн 4
▁эмоциональны 2
▁эмпати 2
▁энергетически 3
▁энерги 6
▁эпидеми 2
▁эпизод 2
▁эпох 15
▁эт 43
▁эта 47
▁этап 13
▁эти 128
▁этим 46
▁это 1240
▁этом 82
▁эффект 10
▁эффективн 5
▁эффективно 5
▁южно 2
▁юмор 2
▁юрист 2
▁я 656
▁яблок 9
▁явлени 6
▁явля 2
▁являет 28
▁язык 8
▁языка 3
▁якоб 2
▁японск 2
▁ярк 1
▁ярки 4
▁ярко 3
▁ярославск 2
▁ясно 6
▁ясны 3
▁ящик 2
